03
FE
02
01
02
FF
FE
04
02
FE
00
03
00
FF
FD
FD
FF
03
04
04
00
FF
00
04
FD
02
05
04
00
04
00
FF
04
FE
04
02
02
04
FE
FF
FC
FE
02
FD
02
03
00
04
04
00
FD
05
02
01
FE
01
FF
05
03
FD
FE
FC
FD
02
F9
F9
F4
F9
F2
F6
F3
F5
F7
FD
FA
00
F9
FF
FC
FC
FF
03
02
02
FD
01
04
FD
00
FF
01
FD
F6
F4
F0
F0
EB
EB
EE
EF
EC
F5
F8
F5
FF
FD
01
03
FE
01
03
05
FE
04
00
FF
FD
04
FE
FC
FB
F0
EC
E8
EB
E1
E5
E4
E6
EF
F2
F9
02
01
04
FD
05
05
FE
02
00
02
FD
03
02
05
05
FD
FE
FD
F5
F6
EB
EF
E6
E5
E8
E9
F0
EF
F2
FB
FF
FE
FF
01
05
00
FF
02
03
00
03
05
03
06
03
04
06
00
FB
FE
04
07
06
01
FA
FE
F7
FF
FD
00
FB
FC
01
03
04
FF
01
04
05
01
08
08
07
0F
10
0E
0A
0D
0F
12
13
12
0E
08
09
02
03
FB
FA
FB
02
04
01
00
00
08
0C
05
0C
09
0C
09
0F
12
10
08
10
10
0C
09
13
06
05
02
04
FE
F2
F8
00
03
04
06
02
09
0D
08
05
02
0A
08
0E
0B
0F
0D
0B
0F
0F
0F
07
02
06
09
04
F6
F3
FD
FB
00
05
FE
01
05
07
06
0A
03
08
08
0C
09
05
07
03
0C
13
07
04
07
01
09
02
F1
EF
F8
01
06
01
01
0A
10
10
05
06
07
0D
0F
12
0C
01
F9
FA
12
15
11
0C
02
07
08
05
F1
F5
00
FD
FD
01
FE
04
08
0F
05
02
08
11
07
04
FB
E6
DE
EB
06
11
0A
0C
04
04
FD
FB
F3
F4
03
FE
03
04
05
07
0B
09
08
02
0B
07
FE
FF
F9
E4
DD
F0
01
0A
0D
05
03
0B
08
FA
F6
F6
02
00
05
FE
03
01
03
06
05
03
09
FB
FF
01
F5
EF
EA
F5
03
0B
10
13
15
12
03
05
FA
FB
03
05
FD
03
03
03
05
03
01
02
03
00
FD
FD
FF
F2
EA
ED
03
10
1F
18
15
0D
05
02
F8
FA
00
06
FE
FE
FF
05
03
01
F9
FB
06
06
F9
F6
F4
FA
FA
F6
0E
16
1B
08
05
06
04
03
00
FB
02
01
FE
01
FF
FF
FD
05
FC
F9
FF
FB
F7
ED
F1
FC
08
0B
0F
07
0B
06
F5
FE
FC
FA
02
02
05
04
03
FF
FD
FE
FF
FD
F8
F3
F5
F1
EC
E6
ED
F5
04
0A
01
F8
FD
F7
F8
F8
FC
F5
FE
00
06
01
00
01
03
00
04
FE
F6
F2
EF
E7
E4
DE
E5
EA
F8
02
F2
ED
EC
EF
F0
F4
ED
F2
F6
07
05
FD
02
02
04
01
FE
FC
F7
E8
E5
E8
E4
E5
E7
EB
F6
F2
F0
F2
EC
E6
EC
F0
E9
F0
FA
07
FF
FD
03
01
FE
FE
F9
FB
F4
EA
E6
F0
F3
F1
F6
F7
F1
F1
F0
FC
EC
EB
F0
EC
F1
EE
F6
01
01
04
FD
FF
FD
FD
FB
F8
F7
F6
F7
FB
FB
FE
FB
F8
F6
F8
F8
F9
F8
F2
EF
ED
F5
FC
01
02
05
FF
01
FD
FD
01
FE
02
03
05
02
F8
F3
F7
F1
F2
F1
F7
F7
F4
FB
F7
F7
F5
FE
F8
FF
04
04
03
02
02
03
03
FF
04
0A
11
09
09
FF
FB
FD
F4
F4
F7
FC
FA
00
F7
F9
00
FC
FC
FF
FC
05
00
04
04
02
02
04
02
06
06
09
0D
0A
0F
0E
0F
09
0E
12
0B
05
06
06
00
FD
00
03
FC
FD
03
05
05
01
03
FF
FF
05
06
02
0B
0C
0D
0E
0B
0C
14
0E
0D
08
0C
02
01
04
01
00
FD
02
FF
05
01
FF
01
FE
01
00
FF
01
FD
04
03
06
06
08
01
06
08
06
03
03
FD
FF
FD
02
03
FE
FF
03
02
04
02
01
FE
00
01
00
03
01
FD
04
FD
FE
03
04
00
04
02
FD
04
01
FF
02
FF
04
02
FF
04
FC
FC
FF
01
FE
01
03
00
00
02
FD
00
FC
02
FE
FE
02
01
05
FF
03
FD
00
05
01
FD
FF
FD
FD
FC
FD
03
FE
01
FC
FE
FF
FD
02
FF
05
00
02
04
FC
FE
04
00
05
FF
FE
FD
FE
00
01
01
FF
FF
FC
03
FE
02
05
FD
02
01
FD
FD
02
FF
FE
04
FF
FC
02
01
00
00
03
FF
01
FD
FD
05
00
FF
FD
00
FD
FD
FE
02
FE
00
04
FF
01
00
02
01
00
FF
03
FC
01
00
FE
01
FC
FD
03
01
FE
00
04
FF
04
05
02
02
03
00
05
FC
00
FF
04
01
02
FD
FE
02
FD
FD
03
FF
03
FF
FE
03
02
FC
02
01
03
01
00
FE
FE
FE
02
FD
04
FF
03
04
FD
FD
04
03
02
03
05
00
03
FF
FE
FD
05
FD
FC
FF
FF
04
01
FD
01
FE
FD
03
02
05
FE
FF
FF
01
00
FF
01
FC
03
05
00
FE
03
02
FF
FD
02
03
03
FF
FC
00
01
01
00
FF
01
FC
FD
03
04
05
02
FD
FC
00
03
01
FE
FC
03
01
03
01
FC
FF
FD
FD
02
FE
01
01
FC
01
04
02
FD
00
FF
00
00
FC
04
04
FD
05
01
FD
02
03
00
05
02
FC
04
02
01
04
FC
01
00
FE
01
03
05
03
04
04
FE
05
05
03
03
04
00
02
00
FE
FF
02
05
02
05
00
02
01
04
03
02
00
FE
FC
00
01
FF
FD
FD
FD
01
04
02
FE
04
03
04
01
03
FE
01
FE
FC
00
FD
02
FF
FF
01
FF
FF
FE
FE
FC
FF
FC
FF
FE
00
01
05
00
05
FE
03
01
04
03
00
03
03
04
02
FF
FF
00
03
FD
FD
04
01
FE
FD
FF
02
FF
00
03
FC
01
FC
00
03
02
03
FE
02
01
02
FD
04
00
FF
00
04
FC
FF
04
02
FF
01
00
00
FE
04
FF
FE
FE
02
04
00
FC
FF
04
03
FE
01
00
FD
00
FC
FD
02
04
04
03
FD
03
FF
FD
FF
00
03
04
03
FD
01
04
01
FE
02
FE
FF
FD
04
05
01
02
00
02
FF
FC
04
02
FF
01
02
02
02
00
02
02
FC
03
01
01
05
00
00
FE
03
FC
04
FE
02
FF
01
02
FF
FD
01
FC
FE
03
02
FE
FF
00
03
04
01
03
FF
04
04
FF
02
04
03
FC
03
05
01
FC
03
FE
00
04
02
02
FB
FF
01
00
FE
01
05
01
01
01
02
02
FF
02
05
00
00
02
FD
04
FE
FE
FD
03
03
FF
03
01
FD
03
00
FB
FE
05
04
02
01
FC
FD
FF
FF
05
FF
03
FC
FE
00
FE
00
04
04
01
FE
FF
FC
02
FC
FE
FE
02
FD
FF
02
04
05
FE
FF
FE
03
FC
02
04
FC
04
01
00
00
FF
01
FE
00
02
01
04
01
03
03
FD
01
03
FC
04
04
FC
FF
FF
04
00
01
00
00
03
00
04
FD
FD
01
FD
00
01
FD
04
FD
FE
05
02
00
FE
01
FD
05
04
00
04
FD
00
FF
05
03
00
FC
FE
FE
FD
FC
FE
03
FD
00
03
05
03
04
FE
02
FD
FE
05
FF
01
FF
00
FD
03
00
03
FF
FF
03
01
01
02
01
FC
04
FD
FF
FF
FC
02
FF
01
02
01
03
04
01
02
FE
03
FD
00
01
FF
FF
FF
02
FF
03
FF
04
FF
04
FC
FD
03
FD
FE
02
01
00
02
FE
00
FF
00
FC
03
FE
FF
FC
01
03
01
01
04
04
01
03
FF
FE
01
04
FF
05
03
03
03
05
FF
01
FE
01
FD
03
FF
05
00
02
03
FD
03
FC
02
03
01
04
03
03
FF
03
03
04
FD
03
FC
FF
05
02
FF
FD
FD
00
FD
01
FC
FF
03
FB
FE
FE
00
00
FE
FB
01
FD
02
FF
FF
02
01
02
FE
FB
FD
FB
FF
FB
FE
FF
03
FB
02
FF
FD
01
FB
FD
FC
00
FB
02
FB
00
FB
FC
FF
FE
FA
FC
FE
00
03
00
FC
FE
FC
01
FF
00
FF
FB
02
FE
00
FE
FF
00
FC
FF
FE
FE
FE
FB
F9
FD
FD
F8
00
FB
FE
FC
03
FE
FC
03
03
02
02
FE
FD
FC
01
FC
02
03
F9
FE
F8
F4
FB
F8
F4
F8
F6
F9
02
FD
00
02
04
FD
00
03
FF
FE
01
FF
01
03
FD
FE
FE
00
FB
FC
FF
FF
01
02
03
00
06
FF
00
02
FE
FE
01
00
04
FF
02
FC
00
02
03
FB
00
FE
00
00
F6
FE
FC
0E
11
0A
01
06
FF
03
FE
FD
00
FE
F7
FF
03
05
FF
FD
FF
02
03
FB
00
FA
F4
F3
F6
FB
00
0A
08
11
15
18
12
10
04
09
02
FC
F4
06
FF
03
FE
FC
02
00
00
F9
F6
F8
F7
F7
FD
FF
03
04
07
16
19
29
1F
10
08
FF
03
03
FB
08
09
03
FF
FD
03
FE
FF
F7
F7
F8
F9
FA
02
06
FF
02
05
0F
0E
11
0D
02
03
01
FD
02
FD
06
0F
02
01
01
02
FD
00
F9
F7
F2
04
07
03
05
02
07
00
FE
F2
EE
F1
F9
F9
01
05
FF
01
07
0A
01
05
01
01
02
FB
F1
FB
FB
01
04
09
06
11
06
05
F2
E9
DE
E7
EE
FE
03
FF
FF
06
0D
08
FE
02
04
03
02
FC
F8
F8
06
08
0A
13
11
10
0A
07
08
FE
F8
F5
00
01
00
0D
09
11
09
09
06
FF
FD
FC
01
FC
F9
FF
0E
0F
0A
05
0E
0B
01
07
1D
14
0B
07
0F
08
13
16
16
13
0D
02
FE
FB
02
03
FF
FA
FF
06
11
09
06
04
0A
00
09
19
24
22
23
19
10
0E
13
14
0D
02
F5
F5
FD
FE
03
03
FD
02
FB
09
09
00
00
00
03
0A
17
1C
25
1E
18
1B
11
04
F9
F7
F3
EE
E7
EE
F8
01
FD
FC
FC
00
FD
FB
FB
FB
F8
FD
04
09
0D
1C
19
12
10
18
0D
FC
EF
E9
EB
EB
E7
EE
F5
F8
FC
01
00
FF
01
F5
F4
F6
FA
0C
06
0B
11
1A
0C
07
09
12
05
EE
E7
EE
E2
EE
EA
EA
F5
F6
FF
FE
FC
FF
FA
F7
E9
F0
03
0B
11
09
10
12
08
FB
04
07
F8
F1
F4
F4
F6
F3
EC
E9
ED
FE
FC
03
FF
FD
FB
F1
EF
FB
F9
00
0C
0F
0A
02
FD
FC
01
F7
F9
00
03
04
F4
F2
F1
EB
F2
00
03
FC
FB
FC
FE
F9
FD
F9
F7
F6
F8
FC
EF
ED
ED
F1
F6
FC
FE
00
07
05
F9
FF
F4
F1
F4
02
01
03
FE
01
FE
FB
FA
FA
FD
F5
EF
EE
E6
EC
F0
F2
F9
FB
F9
01
02
02
FF
F9
F5
F3
FC
FB
FB
FF
00
01
00
F9
FC
FF
FF
FD
F8
F5
F6
F8
FD
F4
F8
FA
FB
F7
FA
05
FA
00
FA
F5
F9
FE
01
03
03
FD
FF
FC
F5
F9
FD
FA
FA
00
09
08
05
04
F6
F8
FD
00
F8
FC
02
FD
FC
FA
03
00
FE
FB
00
00
FD
FA
FA
ED
F2
05
FB
FD
04
0C
10
0B
02
06
01
00
06
09
07
07
06
FF
FD
00
03
03
FC
01
FD
FF
FC
F7
FB
FF
04
06
02
FF
FF
FB
FF
09
06
0E
14
14
0C
04
08
00
FD
FB
04
FE
FD
FF
02
FF
FC
01
02
05
03
04
FF
FD
FF
0A
0A
0D
10
15
18
12
0C
02
04
FF
03
01
00
02
FC
FB
01
FD
02
04
02
FD
FD
FC
05
07
04
03
FE
01
07
05
02
0B
08
02
02
04
01
01
00
FB
03
00
FF
FE
FE
FD
01
01
FB
02
00
02
FA
FC
FD
FE
00
FC
FD
FD
01
FE
02
FF
FE
02
FE
FF
03
FC
FD
FE
04
01
02
FE
FE
FB
03
FE
FF
03
02
FD
02
FB
01
FD
01
FC
FE
FF
01
FE
FC
FC
02
00
FC
03
FF
FB
FB
01
FC
03
FF
02
03
00
FE
FE
02
03
02
02
FB
FB
FF
FF
03
03
00
04
FD
04
FE
FD
02
FE
FF
01
01
02
03
02
01
FF
FC
FE
FF
FF
03
02
FE
00
03
02
01
02
FB
FD
03
FE
FD
FB
01
01
00
03
07
0A
0B
0E
0D
0E
09
09
07
05
FF
FF
01
FC
FC
FF
04
FD
FE
03
FC
01
FB
04
03
03
03
0B
07
0B
0C
0C
06
02
FD
02
04
FF
03
FA
F7
FA
FA
F8
FA
00
01
02
FD
03
FF
04
07
0D
06
05
07
0C
05
FE
FF
FA
00
FC
FB
FF
FA
F7
F7
F3
FB
F9
FA
01
03
FF
FE
FC
03
06
0B
09
03
03
FE
FB
FB
F7
06
07
07
0A
0A
04
F8
F8
FF
F7
F5
F3
F7
FE
FE
00
01
03
04
06
0B
07
00
F8
F4
F9
F9
00
0C
13
18
0E
0A
04
FA
F2
F2
F7
EA
EC
F6
FB
00
FB
FD
FB
FE
05
08
FC
F8
F6
F9
F7
F7
FD
05
17
13
0F
06
FB
F6
F8
F4
F5
EF
E9
F8
FC
FC
FC
FC
01
FD
02
03
FB
F2
F1
F3
F1
E6
F5
FA
09
0D
06
FE
F8
F3
F9
F5
F3
ED
E9
F4
FB
03
FB
FB
02
FE
F7
F7
EF
F2
F1
EE
E6
E8
EE
F3
F4
EE
FC
06
FA
00
04
FC
FB
F8
F5
F6
FF
03
01
03
FE
FA
F7
F0
EC
ED
EB
F2
F4
FA
F4
EE
E1
DF
EE
04
01
08
08
05
FF
02
F5
F5
00
FE
FC
01
FD
FA
F6
F3
F1
F4
F9
04
0B
06
07
FC
ED
EC
FD
03
04
FE
01
FE
09
0A
04
F8
00
01
03
00
FC
F8
FE
FA
FE
03
03
0D
0B
05
08
FD
F6
F3
01
05
08
F9
FD
03
09
0A
05
FF
FF
03
03
FF
FC
FA
FE
09
09
10
15
17
0D
07
0A
FF
F2
F0
05
0C
09
00
08
0D
0E
10
0B
FC
03
00
FF
03
FE
FD
05
0F
0E
17
12
0F
13
12
09
FF
F1
F9
03
09
01
0C
13
11
14
12
0A
00
00
02
FF
FB
FD
FB
08
14
12
0D
0B
0E
0A
0F
03
F1
F0
FD
05
0F
15
12
11
15
13
06
05
03
FF
FF
00
FD
FC
06
09
09
08
07
05
FB
FF
FC
F2
EA
E9
FC
0A
17
13
14
10
0B
0F
00
FE
03
04
FD
01
FE
FE
00
04
06
FB
FF
FC
F8
F8
F5
ED
E8
F3
08
19
13
15
13
0C
11
05
00
FB
FC
02
04
FE
01
01
02
0A
04
F6
F7
F7
F4
FB
00
F7
F7
FD
0A
10
12
12
11
0C
0B
00
F7
F9
FB
04
FE
FB
FD
00
01
0C
04
F8
F8
F9
02
02
02
FD
04
09
0C
0A
0C
0D
0B
0C
FF
F8
F1
FC
02
FF
00
FF
FE
FE
05
04
03
F4
F4
F7
FA
01
04
09
04
01
FF
00
04
04
01
FA
F5
F4
F5
FF
FF
FF
01
03
01
04
00
04
01
FA
F7
FC
FE
04
07
01
FE
F9
F7
FA
F7
F7
FF
FA
F6
FC
00
FE
FB
01
01
FE
FC
02
FF
04
01
03
09
02
06
04
FF
F7
F3
F7
F3
F1
F6
FA
F6
FB
FB
01
FD
FE
01
FF
00
FD
04
03
02
05
07
07
0F
08
03
07
03
FC
FF
F9
F6
F7
F9
F6
F6
FE
FD
04
FC
03
FE
FC
FF
FC
FF
01
FB
FE
03
05
06
04
FE
06
00
FD
00
F5
F8
F1
F8
FA
01
03
02
00
00
FF
FB
01
02
03
FE
FE
02
01
04
01
FE
FE
FC
00
F9
FD
FF
FE
FD
F8
FA
FB
FE
00
FC
03
FB
FF
FB
01
FD
03
FC
FB
01
FC
FB
02
00
00
FE
00
FF
FD
FA
FC
FE
FB
00
03
FE
00
FC
00
FE
FB
01
01
01
FE
02
04
FF
FC
02
03
00
FE
00
03
02
FF
FF
FC
FE
02
FF
00
FE
01
02
01
03
FE
00
FE
FE
FE
02
FF
04
01
01
01
01
01
03
FF
02
FE
FD
03
FF
FE
04
02
01
FE
FF
FD
FF
03
FF
FF
02
05
03
FC
FF
02
05
03
FE
FE
01
03
02
00
FE
02
03
FE
FD
FE
FE
03
01
04
02
01
03
05
FE
03
FE
FE
FE
02
01
04
FE
00
FD
04
FE
03
FF
04
00
02
05
02
03
FF
03
05
00
01
03
00
03
05
FE
FD
00
FD
01
00
01
FF
03
03
FD
02
05
05
03
FD
01
00
00
FD
00
02
FF
FF
01
01
00
01
FD
04
04
03
FF
00
05
FD
03
FE
00
03
00
FF
03
00
05
04
00
01
FE
04
00
FC
02
02
00
00
03
FE
FC
FF
02
FE
FC
03
03
05
FC
00
01
00
FD
FE
FE
FF
FC
02
04
03
FC
FE
FD
FC
00
02
FF
03
03
03
05
FD
02
02
00
02
FC
01
04
04
02
03
FE
FE
04
FC
00
01
FD
03
04
03
FD
FF
04
03
FD
FE
00
FD
02
FD
02
FD
04
01
01
03
FE
FC
00
FE
FD
04
FC
04
00
FD
04
FF
01
02
FE
02
FD
01
FF
01
04
FE
FC
FD
00
01
FE
01
FF
03
FF
FF
FD
01
FD
02
01
02
FE
03
FF
01
00
01
FC
FE
01
03
01
03
02
03
FD
FF
02
03
FD
01
FD
01
00
01
FC
FE
03
05
00
FD
FE
04
FC
00
01
FD
04
FE
FF
FD
00
01
FF
FD
FF
00
00
03
03
02
FF
02
05
05
00
01
01
02
02
04
03
FD
01
02
04
02
FC
FF
FC
02
FE
03
04
03
FC
02
FE
01
00
01
FF
03
05
FF
00
FE
02
04
FD
FD
03
03
FC
FD
01
03
FD
FD
FF
01
02
FE
00
03
FD
00
FD
FE
04
02
01
01
00
FF
FD
05
FD
FD
00
FF
FC
FD
FF
FF
FF
FE
FD
03
FF
FF
FC
FC
01
FF
FC
FD
03
01
04
FD
00
01
04
04
FF
FC
00
FC
FD
00
01
02
04
00
04
00
03
00
FC
03
01
00
01
04
05
03
00
03
FD
04
02
FF
FC
FC
03
02
FC
04
FE
04
04
FC
FE
02
04
02
FF
FC
FB
03
FF
FC
03
05
FF
FE
03
00
FC
FD
FD
FE
02
02
01
01
05
FE
FF
FD
FF
FD
FC
FF
02
04
FC
FD
02
04
FC
00
01
02
04
01
02
FD
04
03
FC
00
FD
01
03
02
02
03
FC
00
04
02
FD
FE
00
01
01
00
04
FF
01
00
01
02
FD
FD
FE
FF
FE
00
04
05
FE
FD
04
FF
FF
FF
00
04
FC
04
05
FD
03
01
FC
FF
FD
FD
05
FC
02
FD
FF
00
03
03
FC
02
FC
00
FE
FD
FC
FD
FD
02
00
FF
05
00
FE
FF
FF
04
01
01
FD
FD
FD
03
FD
FF
03
03
FD
03
FE
FF
03
01
04
FD
FC
03
04
03
00
02
03
FE
00
FF
FE
FD
03
FE
02
01
FF
01
FD
FF
02
FF
05
04
FD
FF
FE
FC
FE
FF
FE
01
01
FE
FD
01
01
01
FE
03
04
FF
FD
04
03
FD
01
05
FE
00
03
02
04
01
FF
FF
05
02
02
02
04
FD
03
FE
02
FD
02
00
04
03
FE
00
FE
00
02
FF
03
05
01
00
FE
04
FC
01
FC
FC
FC
FC
04
03
FC
FE
02
04
02
04
02
01
FE
FE
FD
FC
04
00
05
FF
00
03
01
FF
FF
FF
FE
04
02
00
00
FC
FF
03
FF
FD
04
03
FC
05
FE
04
05
FF
FE
04
04
FF
00
02
FF
FE
FD
FD
FF
FF
FD
FD
04
FF
FF
FC
04
FC
01
05
00
FE
05
04
03
02
01
FF
FE
00
05
01
02
FE
03
04
FD
00
FF
02
01
FE
FC
FE
FE
FE
01
03
FE
FE
01
01
FE
01
FF
F9
FD
FB
00
00
00
01
FE
FA
FC
01
FF
01
FC
FC
FE
FD
F9
F9
FB
FB
F9
FF
FE
FE
F9
FC
FB
FD
FC
01
FC
FA
01
01
00
FA
FD
FA
FB
FE
FD
00
FB
FB
FF
FD
01
02
FA
FF
FD
FB
FE
FB
FC
FC
FA
00
FA
FB
FB
FB
01
FF
FD
FE
FE
F9
FA
FE
01
FB
01
00
F9
FA
FE
FF
00
FF
00
FC
FF
01
FE
FE
FE
F9
FD
FD
FA
FF
01
FF
03
FE
FC
00
FC
FA
FC
FF
F9
FE
FB
01
F9
FB
FA
FE
00
FE
00
FE
FA
F6
F6
FB
FF
FD
01
03
09
02
01
00
FB
F6
FA
FA
FC
F9
FF
00
FC
FF
FC
FB
FE
FE
FE
F9
FD
FB
F6
F5
F3
F7
F9
F8
F4
F4
FB
FC
FB
FA
FF
FF
F6
FD
02
FE
02
FF
FA
FF
FC
FB
F9
FA
F8
F6
F8
FD
FC
03
06
13
0D
0A
11
10
0C
0A
07
FA
F9
F9
00
FD
FF
F9
00
FC
FF
F9
FD
F8
FA
FF
02
0C
0E
16
12
1F
19
1D
20
1E
16
0F
0A
02
FF
00
FC
FC
FA
FE
FA
02
FB
F7
00
FF
05
07
0D
11
13
18
17
1E
21
1F
1B
16
10
09
06
03
0C
06
FE
03
FA
FC
01
03
02
00
FD
00
06
11
10
11
16
17
1A
1D
11
0E
0D
06
03
06
03
09
13
18
08
02
FF
FB
FA
FB
03
04
03
0D
0A
0C
0A
08
0C
0F
18
1C
0A
FE
03
0A
FF
08
04
10
1B
14
07
FD
FD
FD
FF
FE
05
06
04
0C
0F
13
06
01
07
FF
1F
17
FB
EC
FB
FF
FD
01
04
0C
11
14
08
00
FB
FE
00
01
04
05
03
0A
0B
02
01
FA
EC
F1
01
02
F4
E7
FE
FE
FA
F8
FE
FE
05
06
03
FD
FB
FA
FB
FB
00
FD
FF
02
04
00
02
FA
EB
E6
F2
F7
EA
EB
EF
F9
F7
F6
F9
01
04
02
FD
FD
F9
FF
FC
FD
00
F7
FB
FD
FA
FA
FD
01
E9
ED
F3
F6
F0
E9
F0
F9
F2
FA
02
FC
08
0B
FD
F9
FD
FA
FB
F9
F6
FC
FC
F5
F5
F5
FC
00
F2
F7
F4
E9
E2
E7
F4
FE
F8
03
05
06
07
0A
00
FF
FD
FD
00
FB
FE
FD
F7
FB
F3
F3
F3
FF
FA
FA
EF
DD
DD
EC
F2
F4
FD
00
FD
00
07
08
01
FD
00
00
FC
FC
FE
00
02
FD
F5
F4
F9
FB
FB
F0
E1
D9
E2
EC
F3
F4
04
FB
F8
03
02
02
FA
FE
FD
FD
FD
FA
FE
FD
FC
01
FF
FC
FE
FC
F3
E4
E5
E2
F0
F5
00
00
FC
FA
FD
06
04
FD
FD
FA
FC
F9
FD
01
FD
FE
04
07
07
08
04
07
F8
F8
F7
F4
FA
F6
FA
FD
FF
01
02
0A
04
01
FD
FA
FF
02
00
FC
FE
02
08
03
08
0D
06
0B
04
08
02
FC
FA
FC
FF
01
00
F8
FD
04
03
00
F8
01
FF
01
FA
00
02
FE
06
0E
0D
07
01
08
04
0C
00
03
03
04
F8
F9
FA
FA
00
01
00
FA
FD
00
FA
F9
FF
FB
FA
00
03
07
0D
0E
0F
09
06
03
0C
07
0A
04
FD
F7
F9
F6
F8
FD
FD
FB
00
01
FC
F9
FE
FF
FC
FC
02
07
06
07
0F
0B
10
0F
0C
0A
0B
07
FF
F4
F4
F7
F8
F8
FF
FE
00
01
FB
FE
F9
FD
FC
00
FC
07
08
07
0B
0F
0C
10
11
0D
0D
0A
07
03
00
FE
FC
FB
FB
FF
FD
F9
FF
01
01
FC
FD
00
FB
FD
02
04
07
0A
0E
0F
0A
07
0A
0D
0C
0C
07
F9
FE
00
FE
FB
FC
FF
FE
00
FE
FB
FC
FB
FF
00
FC
01
00
01
05
02
08
06
06
05
07
03
FC
FD
FA
FF
FB
FA
FB
FE
FE
FD
FD
FC
FE
FB
FE
FC
FB
FB
01
01
FA
00
FC
00
FA
02
00
FD
FC
02
FA
00
F9
00
F9
00
FC
03
03
FC
03
FC
FC
FC
FC
01
03
01
FC
00
FD
01
FE
FF
01
FE
00
01
FC
FE
FE
FE
02
01
FB
FD
FC
FF
FF
FF
02
FE
00
03
FC
FF
00
01
FC
FC
FD
02
02
FB
FD
01
FF
00
00
FD
03
04
FB
FB
FF
FC
FF
FE
FE
FC
FE
FE
01
02
01
00
FB
01
01
FC
03
FC
FD
00
03
00
00
FC
FD
FE
02
01
FD
FB
FF
01
FF
01
00
FD
FF
FD
00
FF
FB
01
FA
03
FE
01
03
01
04
01
FF
03
03
00
FD
FD
03
04
FF
03
FF
03
01
FA
FE
01
03
02
00
F9
FB
FD
FF
09
07
05
06
00
00
03
02
FB
01
FD
FC
03
FB
FE
FE
FD
FD
FC
03
FD
03
02
02
03
01
FF
09
0D
04
07
07
04
03
00
FD
01
02
FF
FF
FF
00
FF
FE
FB
F9
FD
FF
FD
04
07
0E
0D
0E
0E
0B
10
10
0E
06
00
06
04
FE
03
04
FD
FE
03
FE
FB
FD
F6
F9
F8
01
03
0A
0D
14
15
11
0C
0C
0C
08
0A
02
01
00
FE
05
FC
FC
FE
FE
FF
FF
FE
FB
F5
F6
FA
02
04
0D
0F
08
0A
00
FF
02
FF
FF
FB
F9
FC
F5
FE
03
02
FF
FC
FE
02
FC
F7
F9
FF
FD
FE
06
0D
0B
09
00
FD
FB
EF
F6
FC
F4
F5
F6
F0
F1
FE
FF
02
00
FF
FB
FE
FA
FD
00
04
03
04
09
09
09
FC
F9
EF
E9
ED
EE
EF
EC
EF
F0
F2
F3
F9
FD
FD
FC
00
FD
FE
02
FD
05
07
03
08
01
FB
F9
F5
ED
EF
F3
F6
F5
FC
F8
F8
ED
F2
F6
FA
FD
FD
00
03
FB
02
FC
03
03
01
FE
FC
FF
FA
F6
F8
F6
FB
F8
F6
FE
05
03
01
FA
F5
F6
F5
00
FE
01
04
00
FD
FF
FF
05
06
02
FE
00
FF
FD
05
0C
03
03
FA
02
06
0B
07
01
F9
FA
F6
01
03
03
FB
FE
02
00
03
06
08
07
03
05
01
02
00
03
02
01
FE
01
07
07
06
F9
F5
F5
F9
00
FF
03
04
02
01
03
01
04
04
0C
07
07
02
01
FE
02
FB
FC
FD
06
02
06
04
FF
FA
F6
FF
01
01
FC
04
FE
FE
00
03
04
07
02
01
FD
03
03
04
FC
FC
02
07
0A
0A
04
FE
FF
FD
FB
00
02
02
FE
FD
00
FF
05
05
06
04
02
01
00
03
02
01
02
01
06
0A
09
0A
08
06
06
FD
FF
FF
04
03
03
03
03
FB
03
02
07
07
FF
FC
FF
FC
00
F9
FF
FF
04
08
0A
08
09
07
04
FD
03
05
FE
FE
FC
00
00
FF
03
01
04
06
03
04
FA
F8
F6
F5
F6
F8
04
08
03
09
0C
07
06
02
01
04
03
00
01
03
03
FD
FE
08
04
01
06
04
FB
F5
F2
EE
EF
F2
F9
07
03
08
06
07
08
03
04
05
03
FD
FF
00
FB
03
01
05
04
04
01
02
FF
FF
F7
F6
F7
F9
FD
00
FE
00
01
03
06
09
05
FF
FD
01
FB
FB
02
FD
04
06
05
03
FD
07
08
01
06
FF
F7
F8
F6
00
FF
01
07
07
0B
05
07
FF
04
03
01
FB
FF
04
01
04
FF
FD
01
FF
FF
01
02
FA
FB
F7
FA
FB
FC
FF
06
06
09
03
FF
03
01
00
FC
FC
00
03
04
FE
FB
02
02
01
FE
00
01
FD
00
FD
FB
FC
02
00
02
05
09
04
06
FD
FF
FB
03
02
02
FC
01
FD
FD
FC
02
FC
FC
01
01
02
01
04
FE
FF
FF
FD
FF
09
06
FE
02
01
00
FD
00
FC
FE
02
01
01
01
FE
FF
FB
FD
02
FE
02
FD
05
03
FB
FD
00
FD
01
00
FC
FD
FE
FD
03
03
FC
FC
03
03
01
00
FD
02
FF
00
FB
FE
FB
02
02
01
00
02
FE
FC
01
01
00
01
FE
02
FB
FE
03
01
01
FC
03
01
00
FD
FC
FF
01
00
00
04
04
01
04
01
04
01
02
FD
FE
00
FF
02
04
FD
02
FD
FD
02
02
03
FD
04
00
FC
FF
03
FF
03
FF
00
00
02
FF
FD
03
00
04
05
FD
04
04
02
03
FE
03
00
00
02
01
FD
04
00
FC
FE
02
02
FF
03
04
FD
FD
05
FC
04
FD
01
FD
FE
04
03
04
00
FD
FF
03
00
FD
05
FE
FE
03
FF
03
00
00
FD
FC
01
02
01
04
01
04
FC
FD
FC
FF
FF
FE
FD
01
FF
01
03
FF
04
03
FD
00
03
FC
FD
01
FE
01
03
04
01
01
03
03
FC
FC
04
FE
FE
FC
FD
FE
FE
FF
FE
02
03
FF
01
FF
01
00
03
02
FF
FD
FC
FD
04
FF
FE
FE
04
FF
04
04
00
FD
04
00
00
FE
FF
05
FC
FE
02
FD
00
01
03
FE
FE
04
FF
00
FE
01
FC
03
FC
02
05
FE
01
02
FC
04
03
02
04
04
FE
01
04
FD
01
FE
FC
FD
04
FD
FE
02
04
FF
FE
FE
00
03
04
04
FD
03
04
FD
03
02
FE
03
01
FF
01
FE
04
03
03
FD
FE
03
FD
00
FE
05
03
04
00
FD
01
01
FF
FE
FE
FF
03
03
FD
02
FF
00
FF
04
00
FC
FF
FF
00
FE
FE
FC
FF
FE
02
01
04
01
FD
03
FC
00
00
FF
FE
04
FC
FD
FE
02
03
FF
04
01
FC
05
04
01
01
01
00
03
00
FC
FE
01
01
FE
03
04
FE
04
FD
02
04
FC
FC
FD
FC
00
04
FC
FE
02
04
03
FC
FC
01
03
02
FF
FF
00
02
FF
FC
02
00
04
01
04
04
FE
04
FD
03
00
04
FE
FD
01
FC
00
01
04
FE
FE
FC
FC
FE
04
02
04
FC
02
00
01
03
04
02
FD
00
FF
FC
01
03
FF
01
03
FF
01
FC
03
FE
01
FF
FF
FE
01
02
FD
02
FF
01
FC
FE
00
02
04
04
00
01
04
00
01
00
FD
FD
FF
03
FC
FE
02
02
02
02
04
02
FE
FF
FC
FF
04
04
FF
01
FC
FD
04
02
FE
01
04
FD
FF
FE
02
00
02
FF
FC
FF
FE
04
FC
FC
02
FD
FE
01
03
01
FF
04
FE
FF
01
02
01
FF
05
FC
01
00
FE
01
01
FD
03
01
FF
01
05
FE
04
00
04
03
03
03
FF
FC
FC
FF
01
FC
01
FD
FC
FD
02
FC
00
01
FC
00
FF
02
FD
FE
FD
01
FF
FF
FC
03
03
02
02
04
02
FE
FE
FD
FD
FF
00
01
01
03
FF
01
02
03
02
FE
00
FD
02
02
01
FD
01
01
FF
FF
FD
FF
03
03
FF
00
FF
00
FF
FF
FD
FE
04
02
FF
FE
03
FF
01
FC
01
02
01
02
00
04
02
04
FC
FC
FD
01
04
FE
00
01
02
01
FF
04
FF
03
01
FC
FD
03
03
04
FE
03
FC
FD
03
04
FF
04
FF
02
FD
00
04
FF
00
01
04
03
FC
FC
FF
01
03
05
FC
FE
03
00
FF
02
00
03
FE
01
04
FD
01
FC
03
FC
04
02
FD
FD
00
02
FE
00
02
FF
00
00
01
FD
FF
00
FD
04
01
00
FC
FE
FF
FC
02
02
FF
FF
FE
01
00
FC
00
01
05
FC
FF
00
05
FD
03
00
FD
00
04
00
04
FE
FF
FF
FD
FD
03
FF
FF
FD
FD
FC
FF
01
04
FC
00
FD
01
05
02
03
00
FD
02
03
02
FD
03
FC
01
FF
FC
00
03
01
FD
01
01
04
03
FC
01
00
FE
04
03
FC
FC
04
FC
04
FD
FF
FD
03
FE
FF
02
FE
FC
03
03
04
04
04
04
00
04
FE
FE
FC
FE
02
02
FE
02
FC
FD
02
FF
FF
FC
FE
04
FE
FE
03
01
FC
FE
04
FC
01
00
FC
02
FE
03
01
04
FE
FC
03
05
00
FE
02
FF
FD
01
01
FD
01
FD
FF
01
01
03
FC
03
FE
01
FD
04
FC
01
04
02
FF
FD
02
04
FD
FD
FF
FC
01
04
00
01
FC
FD
FF
01
01
FD
03
02
03
01
01
02
00
FD
00
04
03
FE
FE
FF
02
00
FE
04
03
02
03
02
FC
FC
01
01
04
01
00
01
FF
FC
00
03
00
05
03
04
03
02
02
04
01
04
01
01
FF
FE
FF
04
FD
04
FC
05
03
02
FF
00
FD
00
00
02
FE
FF
FF
05
01
02
FD
02
FD
03
00
FF
FC
FF
03
05
01
FE
03
01
FF
04
FE
01
03
01
FC
00
03
00
01
00
03
FE
01
02
04
FE
FE
01
02
FC
FC
00
FC
FC
04
05
03
02
02
FC
00
FE
04
FF
01
03
04
FD
FF
00
04
FE
00
00
FC
FD
02
FC
01
04
FD
FE
FE
00
00
04
02
03
02
FD
03
FD
FD
04
FF
FC
04
04
03
00
FD
00
FD
02
FF
FC
FF
FD
02
01
01
01
FD
01
02
04
FF
04
FE
FD
FE
04
03
02
04
01
01
FE
FE
FF
FE
FE
04
01
04
FC
FC
01
04
00
02
03
FD
FE
03
02
00
FD
01
FE
03
00
02
03
FF
04
04
01
FD
FC
FF
03
01
FD
04
03
05
02
00
03
FF
FC
02
FD
00
00
02
FD
FD
02
03
FC
04
FE
02
03
FE
04
00
00
03
FE
FD
01
01
04
01
FC
01
FF
01
01
02
FE
03
FD
FF
03
FE
00
FC
FC
FC
03
04
FF
FE
04
01
FF
FD
03
01
FD
03
03
01
FF
02
01
FD
00
FE
FF
00
03
FC
02
FE
02
FE
00
FC
FB
04
00
05
04
FF
02
FE
04
FD
FF
04
03
FE
FF
04
00
00
FE
01
03
FE
FD
01
01
FD
FD
01
03
FE
00
FD
02
FD
04
00
02
FC
FC
FD
02
00
03
03
01
03
FF
02
00
FD
03
FE
02
02
03
FE
FD
01
04
04
FD
FC
01
FC
01
FD
00
02
00
03
FC
01
FD
FE
04
FD
04
00
01
02
FD
FE
00
FC
04
04
FC
00
01
02
FC
04
FE
00
04
FC
01
FC
FD
FF
FF
02
FD
FF
FD
FF
01
FD
FC
FD
02
00
FF
00
04
05
02
FE
03
03
02
02
01
FF
01
FC
03
00
00
FE
FC
02
03
FE
FD
04
00
FD
FC
00
00
01
04
FE
01
03
04
FD
02
01
FD
FF
FF
FE
FF
03
FF
FF
02
00
00
00
FC
00
FF
04
02
01
00
04
FC
02
FD
03
02
FF
04
02
02
00
04
03
01
00
04
01
00
05
FD
FD
03
01
FD
FE
00
FB
FD
02
FE
FD
04
00
05
FD
04
05
FF
04
01
FF
FD
00
05
FF
01
FD
04
03
04
FE
04
FE
04
00
01
FD
01
FC
FF
FD
05
04
00
02
01
FC
00
01
04
02
02
02
00
03
FC
00
00
04
FE
02
02
FD
01
FE
04
FC
04
FD
01
01
01
03
FF
FF
00
00
00
01
FE
04
01
FF
02
00
02
00
02
FE
FC
02
FC
02
04
02
04
FF
03
00
FF
FC
02
05
FE
03
FF
FE
FF
03
04
00
FE
01
03
03
FD
02
02
02
02
01
04
02
FE
00
04
04
01
04
05
02
00
FE
FD
04
FC
FF
FC
FD
00
FF
00
00
03
02
FD
FC
00
FF
FC
00
01
03
FF
03
00
01
FC
04
00
04
FF
04
02
02
03
00
FC
FD
FE
FE
01
FD
04
FC
03
02
05
04
FF
FC
FF
03
03
02
02
FC
FE
FC
02
03
FD
FC
01
FF
04
FC
FD
01
FE
FD
FE
FD
01
FC
FC
FC
00
02
03
FC
04
FC
01
01
01
FE
01
FF
00
FF
03
00
01
00
00
01
FD
05
FD
04
FC
FF
03
04
02
03
FF
00
FF
03
04
03
02
03
04
FE
FF
FC
01
04
FC
FF
04
01
00
01
FE
00
03
FC
FC
04
04
02
FF
FF
FC
00
FE
FF
FC
00
02
FC
FF
FE
00
FF
FC
FE
03
FD
FD
FC
00
03
FC
04
FC
00
00
FD
03
FE
02
FD
04
02
02
00
FE
00
01
FE
01
04
FC
FD
02
02
FE
02
FF
03
02
FF
04
FC
FF
01
01
04
04
FF
04
FF
03
02
FE
01
00
FE
01
FB
FF
FF
01
FF
FD
FC
01
01
FF
FE
03
00
FF
03
FE
00
00
01
FF
03
01
02
FA
F7
F8
FC
F9
F6
FD
FC
FB
03
FD
FD
FF
FE
FA
FA
FF
00
FF
01
FC
FE
00
00
04
00
FD
FD
FF
FD
F6
FD
FC
FF
03
09
0D
04
01
03
05
01
03
02
01
02
03
FE
03
01
FD
FE
04
00
FE
00
F5
F6
F9
F7
FB
05
0B
10
17
18
12
0C
03
08
03
FD
01
00
FD
FF
03
03
04
04
FE
04
FF
F9
FA
F8
F6
FD
FA
FB
FC
07
14
16
14
0D
0D
08
06
00
FD
FE
FA
04
FC
00
FC
04
FE
02
02
FB
F7
F7
F9
F4
F6
F4
F1
F8
0A
14
1D
14
0C
0D
05
FC
F3
F9
00
01
FF
00
00
04
01
FF
FF
FB
FD
FD
FA
FB
F2
F0
E9
F6
09
1E
1A
0F
0C
05
00
FA
EF
F5
02
00
02
FF
01
01
01
00
00
01
01
03
02
FB
F0
EC
E4
FA
12
1C
1C
15
09
FE
FB
FA
F0
F2
FB
02
02
00
FC
FE
00
FE
00
FC
01
FF
01
F6
F7
EA
E3
F9
0D
16
0F
0C
06
03
04
FA
F6
F2
FD
01
00
03
03
FC
05
FE
FD
FD
00
01
01
FE
F6
E6
E6
FE
09
0A
09
08
0D
0D
08
00
FA
FA
FF
FD
FF
00
04
FF
04
03
05
01
01
04
FF
FB
F5
EC
ED
FB
01
08
FD
08
0C
0D
12
08
07
02
FF
02
FD
FF
FD
04
04
FD
FE
02
01
03
FF
FA
F7
F1
F1
FF
08
04
06
06
09
09
07
07
02
04
FD
01
01
02
04
FF
04
03
05
08
07
01
FF
04
00
FD
01
03
05
0B
0C
0A
0D
05
03
04
04
04
04
01
FE
00
03
03
05
03
04
0A
09
01
02
05
0D
05
00
06
09
06
06
07
02
FE
06
04
FF
FE
FC
03
03
FF
FD
02
07
05
01
07
09
0A
04
02
08
06
04
06
06
09
04
FD
FE
FA
FF
FF
02
01
02
FC
03
FD
00
FD
05
FE
FE
07
0B
08
06
03
08
04
01
F6
FD
FD
F9
FB
FC
FB
FC
00
00
03
02
01
FD
01
00
FB
02
00
F9
FE
03
01
04
03
FC
F8
F4
F0
FB
FD
00
FA
F7
FA
FC
FF
FB
FB
02
FE
00
04
FF
02
FC
04
FF
06
FE
03
FE
FE
F9
EF
EC
F2
F8
FD
FE
F7
FC
FB
FB
F9
FB
00
02
02
FD
FF
FB
FC
FC
05
08
05
06
FE
08
01
FC
F3
F1
F9
FC
FE
00
F9
00
FA
FE
FC
FB
03
FD
03
03
02
01
FE
01
04
08
04
01
07
03
02
00
F9
F0
F7
FA
F9
FC
00
01
01
FE
FB
00
FF
FF
02
FC
FF
01
01
FA
05
0C
07
03
02
05
0B
04
02
FB
FD
F9
FD
FC
FC
FC
FF
F9
01
01
02
FC
FC
FC
FD
FC
00
01
FD
03
07
08
06
0B
09
09
09
05
02
FD
03
FD
FE
FD
FB
FE
FC
FC
FC
FD
03
FF
FF
02
FE
FE
00
FF
FB
00
00
FF
FE
03
FD
FD
FC
01
FE
FF
FC
FA
FE
02
02
FB
00
FF
FE
02
FF
04
01
04
FC
FD
FF
F8
FF
FD
F8
F7
F9
FF
F8
FA
FA
FA
FD
01
FD
03
FF
FC
04
04
FE
FF
02
02
FF
04
FC
03
00
01
00
FD
02
FB
FE
FF
00
02
FF
FE
FE
FB
FE
FF
FD
00
04
00
00
00
FB
FE
04
00
01
01
01
04
01
FD
00
04
04
01
FE
05
00
01
FC
FC
FE
03
03
02
00
02
FE
05
FC
01
FD
02
01
03
02
04
01
04
00
00
01
04
00
FD
02
FE
05
00
00
02
04
05
04
05
FF
02
00
04
FF
04
FC
00
01
FE
04
FF
FF
FE
04
FD
02
FE
02
05
01
01
02
FF
02
FD
01
02
02
01
FE
05
FD
01
04
04
FE
FC
FC
FD
01
FD
FF
02
03
04
05
FF
FC
FF
FF
FF
FF
FE
04
01
FC
00
05
01
02
04
01
03
04
FC
FE
03
FD
FE
00
00
FF
01
FD
00
03
05
01
02
05
FE
01
04
01
FF
FE
FF
02
FF
04
FD
FE
05
02
FF
04
04
FD
FF
03
01
FD
FD
FE
02
02
03
04
03
FF
FD
03
02
00
FF
02
01
03
FD
FD
FD
00
03
00
05
05
03
03
02
FC
03
04
FD
01
00
FD
03
02
00
FE
00
00
02
02
04
03
04
03
FC
FC
FE
FF
FC
FC
FE
FB
01
02
FC
04
03
FD
02
00
00
FF
FC
01
03
01
00
01
03
FF
FF
03
FF
00
00
01
02
01
03
FD
01
04
FC
FF
02
FE
01
01
FD
FE
FD
FF
05
01
FC
02
FC
FF
01
05
03
03
FE
FC
02
01
FF
01
FE
FB
00
03
FF
FC
01
03
FD
00
02
03
02
FF
FE
03
FD
FE
05
02
FF
FE
FB
01
01
FE
FC
00
03
FF
04
01
01
00
03
02
FF
03
02
00
FF
03
03
FD
FC
01
02
03
00
04
02
02
FC
FE
03
01
FC
02
FE
FF
00
02
00
02
FD
05
00
02
02
01
FC
FF
01
05
FE
04
00
01
01
FC
03
04
FD
03
03
FF
02
04
04
00
FC
02
FE
FE
04
03
05
04
04
05
04
03
01
FD
FF
FC
FE
FD
FD
FE
FC
FF
00
01
03
FF
02
FD
05
01
04
01
00
FC
FD
FE
FF
FF
00
04
03
00
FD
FD
00
03
FD
04
FF
01
FE
FC
03
04
05
05
01
00
01
03
04
02
01
00
FF
00
FC
FC
04
FE
FE
04
FC
FF
FF
03
01
FE
04
03
FD
FE
00
03
FD
00
03
01
FD
00
FC
FD
04
05
FE
01
FF
03
01
FC
02
04
00
FE
03
03
01
FD
00
00
04
FF
03
01
FD
05
04
01
02
00
03
03
05
03
03
FD
FE
05
01
01
01
03
FF
04
02
FE
01
00
00
01
FD
02
FF
04
04
03
FF
FD
FE
01
03
FE
05
FD
02
FC
FD
FD
FE
02
FE
01
03
FF
02
FF
FC
04
05
05
01
00
FF
00
FE
01
FF
01
05
FC
01
FD
FE
01
FE
FE
01
05
04
01
00
04
05
04
00
00
01
FE
01
FC
02
03
FE
FE
01
FF
02
05
05
FC
00
00
00
03
02
02
02
05
02
02
00
01
FF
00
02
02
FD
FE
05
FC
03
04
02
01
FD
03
01
01
FC
00
FF
FE
00
FE
01
01
01
FE
04
FD
FE
01
02
FF
FE
04
04
FF
00
00
FE
04
00
00
04
FF
01
FD
FE
02
FC
00
02
FD
FD
02
03
02
00
FC
00
00
FF
00
00
02
FF
FD
03
FD
FC
04
FC
04
FE
FC
03
00
FC
FF
00
03
FE
00
04
05
03
FD
04
FF
04
04
02
05
02
FF
FF
FC
05
00
FF
01
00
01
02
02
02
02
FD
FE
03
01
FE
FE
FE
FD
FD
04
02
01
03
FF
03
FD
FD
04
04
FD
00
02
FC
02
00
00
03
03
03
02
FE
FE
FE
FE
FE
05
FF
FE
FC
00
01
FD
03
04
00
01
05
02
02
FC
FF
FE
02
05
FF
FD
FF
02
FE
03
02
02
03
02
FE
02
02
00
02
FD
FF
03
00
FD
FE
FF
04
FD
FD
FC
FF
00
03
02
03
FF
02
01
FF
FF
FE
00
FC
FF
FF
00
03
02
FC
FF
FE
FC
04
FE
00
04
FC
01
FD
05
04
04
03
FF
00
FF
FD
01
05
FF
FF
04
FF
FE
03
05
02
FE
00
04
02
FD
FD
02
FE
04
02
00
02
04
FD
FF
FD
FE
04
04
FE
FE
01
04
03
FF
02
FF
FE
04
04
01
02
FC
00
02
02
01
FD
01
03
FE
FC
02
01
FE
03
FC
02
FC
FC
03
00
02
01
01
03
00
03
00
02
FE
05
FE
02
FF
01
FD
04
FD
01
00
04
FD
00
FF
03
01
04
05
02
FF
00
FE
01
05
02
01
FC
FE
03
01
FF
FD
00
04
FD
FE
FD
04
FC
02
FE
02
03
00
FC
05
05
04
02
FD
FF
04
01
FC
05
00
01
00
FC
03
01
FE
FC
01
FE
FD
02
FD
02
FE
FC
FE
02
FD
03
02
03
FC
FC
03
01
00
03
FF
FE
FF
01
00
04
FF
00
03
00
00
04
FD
05
02
FC
02
02
01
00
02
FC
04
FD
04
04
FC
FD
FC
02
FD
00
FE
02
FC
00
00
FE
03
04
03
03
01
FF
FE
FF
03
FF
04
03
FD
FD
01
FC
FD
FC
04
03
00
00
00
03
04
FF
FC
FD
FE
03
02
FF
FE
FC
04
05
FF
FC
FF
03
00
00
FC
FE
FC
03
03
FC
FE
01
01
03
04
FC
01
FF
FC
FC
01
FC
00
04
01
04
FD
05
FC
FD
03
FE
03
03
01
04
02
04
FC
FE
FB
FF
03
03
FF
04
FF
FC
03
FE
FD
FF
04
00
02
FC
00
01
04
FD
FD
04
FD
FE
00
04
00
00
FD
FC
01
FF
01
04
02
02
01
00
FF
00
03
FD
FD
FE
03
03
FD
02
FE
03
02
05
FD
FE
02
FD
04
01
FE
FC
FE
00
00
04
FF
FD
04
FC
02
FC
FE
03
FE
FC
FE
FD
FE
FD
04
FF
FD
02
FD
03
04
FC
FD
04
03
03
FE
00
FD
05
FE
03
00
FB
03
00
05
04
01
FF
02
FC
FD
04
FD
03
FF
FD
03
03
04
FF
FF
00
FC
04
FE
04
01
01
FD
FF
04
FC
02
FE
FC
04
02
01
02
03
FC
03
01
02
FE
FD
FE
FF
04
03
01
02
02
FF
03
00
03
00
FC
FC
FE
03
FC
00
FC
FE
FF
02
02
02
01
FD
FD
02
01
FD
01
00
FC
02
FF
01
01
FE
FF
04
02
FC
FF
02
00
02
FE
01
FC
FC
03
03
FF
FD
FD
03
03
01
FF
FC
FE
FE
01
02
FD
05
FD
FD
04
00
01
FF
00
03
FD
04
02
FF
03
01
FE
FF
02
02
02
FF
01
03
00
03
FC
FC
FD
FE
04
01
00
04
FF
FD
FE
00
FF
03
FC
FE
FC
02
FE
04
04
FC
FC
00
FE
00
03
FC
03
02
FE
FF
FD
04
FE
FC
04
04
FD
FF
03
04
FC
04
04
FC
FC
FE
02
FD
FD
00
FD
FD
FE
01
FD
00
04
04
01
03
FD
03
02
02
00
FD
03
FC
03
04
FE
FF
04
04
00
02
03
FE
04
FE
02
FE
FD
FF
FF
04
04
04
00
FD
FF
00
FF
02
03
03
02
01
FC
FF
03
FE
00
04
FE
04
FC
FE
01
FF
FE
FD
FE
00
01
FD
05
00
00
00
FC
02
FC
02
FC
01
FD
00
04
04
02
FE
04
FC
01
03
FF
FF
02
FF
02
FD
02
03
00
FC
01
00
FC
02
FC
01
00
03
04
05
FD
00
04
01
FD
00
03
FE
FE
04
00
04
FE
04
FC
FF
FE
00
FE
FC
FE
FC
FC
03
05
FD
03
02
FF
FF
FE
FC
02
FF
FD
03
FF
FD
FF
01
04
04
01
FE
02
01
04
04
02
03
05
FD
02
FE
00
01
04
02
01
01
00
04
04
03
FE
03
FE
00
04
00
01
03
FF
02
01
01
02
00
FD
02
00
FD
03
04
02
00
02
FE
01
FF
00
FE
00
02
FC
FF
FC
03
02
04
03
02
FC
FD
FF
02
03
02
01
FE
00
FE
03
05
01
02
03
02
00
02
01
FE
00
01
02
05
FC
FD
00
01
FD
04
00
03
FD
FD
02
FD
04
02
FC
FF
04
02
FF
FB
00
00
02
01
03
FF
03
FD
01
01
FC
FB
03
FB
00
FE
FF
FB
00
03
FD
03
FB
00
00
FE
04
FC
01
FE
FC
01
FE
FD
FF
01
FC
02
01
FE
01
03
03
FE
01
FE
FF
FC
02
00
02
03
03
02
05
FE
00
FF
FB
FF
FE
03
FF
05
FC
FC
01
FB
FC
FF
FC
FE
03
00
FC
00
FB
FE
FE
FD
FC
FE
FC
F6
F8
F4
FB
F9
FF
05
03
08
0A
03
04
01
FD
02
FD
01
00
FB
02
FF
FB
FB
F7
F1
F6
F2
F4
EB
EA
F2
F9
FE
04
02
02
03
06
09
0B
04
FD
FF
FF
01
FD
FF
FE
FC
F3
F1
F3
F8
F9
FC
FB
F2
F0
FB
FF
01
12
0B
05
0B
0B
14
0E
0B
03
FD
FB
FF
04
FB
FF
F5
F5
F4
FC
03
01
FC
F5
F6
F2
F1
F3
F4
FC
FE
05
01
05
17
17
0C
08
05
FB
02
FD
FF
F9
F6
F2
FB
FD
04
00
01
FA
EC
EA
EF
EE
ED
FC
FE
00
F8
02
10
20
15
0C
05
FE
02
FD
FB
F6
EE
F0
F9
FE
03
06
FD
01
FA
EB
E9
E7
F6
F4
F9
F6
FB
01
08
1A
20
0F
FE
FF
FB
FD
FA
FB
F3
F4
F9
02
06
01
0B
0D
03
F4
D8
D6
E9
F3
F9
F9
F9
FA
06
16
1C
0F
00
02
FD
FF
FE
F6
FB
FD
FD
01
10
19
16
19
16
F5
D3
DB
E5
EF
F1
F1
EF
F3
FF
0A
11
0B
00
01
FF
FE
FC
F8
F4
03
05
09
13
1A
15
17
10
F5
D3
D8
ED
EB
E8
EA
E3
EC
F6
00
04
00
FC
FF
01
02
FF
FD
F9
FD
0B
0D
0D
0D
13
1D
23
04
D6
E4
EA
ED
EF
F1
F2
F0
F8
03
01
FE
01
FE
01
FB
FF
FA
F7
08
0F
16
10
16
21
2C
21
FF
E3
F1
F2
F8
FD
FC
FC
F7
06
0A
05
FA
02
FD
04
FC
FC
FC
FB
07
0E
1B
15
1B
26
29
1A
F9
EF
F4
FF
00
FF
02
FB
01
09
0A
08
FB
FA
FF
FC
01
FF
FC
FB
0C
0D
15
19
24
1C
1A
13
FB
F9
FE
08
0B
07
00
FA
FC
02
04
FF
FB
FA
01
00
04
01
FB
F6
FE
0D
10
14
15
0F
14
0E
00
06
0F
0F
13
04
FE
04
F9
FB
FD
FA
FA
F8
FB
FC
FD
02
F8
F8
08
0F
0E
0D
08
0C
0C
05
FE
01
02
0D
0E
0A
FC
05
FF
F9
FC
01
F9
FA
03
01
03
02
F3
FA
05
12
11
04
06
01
02
08
07
FB
04
08
06
00
FB
FD
FC
F8
FA
02
FC
FE
FD
00
01
FD
F7
FA
04
0D
0A
04
00
00
0B
0B
07
00
05
00
FE
FD
FC
FF
FE
FA
FE
FF
FC
FD
FB
FE
FF
FE
FB
F5
FC
FC
02
FD
FF
06
13
14
09
03
04
FF
00
00
F7
F9
FB
00
FE
00
FE
00
00
03
FE
03
FC
F9
FA
F5
FC
01
04
0D
17
16
0D
0B
08
FD
01
F9
FA
FE
08
0A
01
FA
FA
01
FD
FE
FE
FE
FF
F7
F4
EF
F7
04
FE
04
07
13
13
08
07
07
FF
01
03
05
07
07
FC
FA
01
03
FF
03
FF
03
FE
FD
F6
F0
F7
FD
06
04
0A
08
05
07
0B
07
01
01
03
04
01
04
02
FB
04
FC
02
FC
02
FE
FC
FF
FA
F0
F3
F7
FF
FC
FD
03
05
02
08
05
FC
06
04
FE
FB
FF
FE
FC
FF
02
FF
03
FF
FE
FF
02
00
F7
F7
F1
ED
F2
ED
EA
EE
F0
F9
F0
F1
F0
F4
FA
FA
02
FD
00
FC
03
FE
FC
FE
FF
02
03
FF
FE
FF
FC
F3
FA
F8
F5
F2
F4
F7
F2
F7
F6
F8
00
FC
FB
FF
FD
FF
FC
01
FC
FE
FF
FB
FC
01
00
FF
02
01
02
FA
FC
FC
FD
FA
FE
FD
FC
FF
FC
FD
FE
FE
02
FC
01
FB
04
FD
FE
00
FE
03
02
04
FE
05
02
05
FF
04
FE
FC
FF
FC
02
FE
03
FF
03
03
03
05
03
02
02
FE
FD
02
04
03
03
03
00
06
00
05
FF
06
00
FD
02
04
FD
00
04
FF
00
FF
01
FC
00
FC
FD
05
FD
FE
FF
FD
05
05
00
04
05
0C
05
0E
0A
09
0B
06
02
03
04
03
04
FD
04
00
01
FD
02
01
FE
FD
FF
04
04
05
08
0B
06
0C
0A
09
0C
0B
06
01
02
0A
03
05
04
FF
03
FE
FD
01
03
FC
FF
02
03
FF
FE
03
01
05
01
FE
01
05
04
FD
06
00
FA
01
07
03
01
00
00
02
00
FE
01
04
04
03
00
03
00
00
00
FB
F9
F5
F8
FD
06
07
05
01
04
02
00
08
00
FA
FA
FD
01
00
03
FE
FF
01
FD
00
00
FC
F5
F3
F6
F3
F4
F4
FB
FB
FA
FA
F8
F8
F4
F9
F8
F7
F7
FD
03
01
00
FC
05
00
01
F7
F9
F4
F4
EC
EF
F8
F6
F4
FD
FC
F3
EB
ED
EF
F1
F4
F6
EC
F2
F5
FA
02
05
02
FD
01
02
FE
F8
F8
F8
F9
FC
FB
FD
00
01
FF
F5
EF
EA
F0
EE
F0
ED
E3
EB
F4
FF
01
04
FD
00
FE
00
F7
FC
FC
01
FC
03
00
FF
04
02
07
FC
EE
E8
E5
EB
E5
EA
E0
E6
F0
FF
FE
02
00
01
01
FF
FD
FF
01
03
FF
02
00
FB
FB
03
03
F8
EE
EB
EB
E8
E7
EF
EE
EA
F5
FD
FE
01
FC
FE
FD
02
00
FC
FD
00
F9
F4
EE
E7
F3
FE
FC
FA
EA
EF
F8
F7
FC
FE
FB
F8
FB
02
FD
01
02
FC
FE
00
FC
FA
FB
F9
F9
EA
EA
EC
FA
07
06
F9
F9
F9
F9
04
0C
03
0B
06
00
00
05
FD
02
01
FF
FA
F4
F2
F2
F5
F9
F0
F0
F4
0B
12
0F
03
FB
FA
FE
05
09
0A
09
07
00
03
FF
FD
01
01
FE
FA
F6
F7
F8
F8
F9
F1
FE
05
12
1E
13
0A
F2
F6
F8
00
02
05
05
08
05
02
01
FF
01
FC
01
FD
F8
01
FC
FE
FF
FA
03
10
21
2F
14
06
FB
F2
F9
FD
FF
FC
03
08
05
FF
FE
FE
FE
02
00
01
01
02
FF
FA
04
0A
11
0C
20
29
0F
05
F5
FB
00
FA
04
FC
FF
09
0D
08
04
04
01
00
06
00
FD
FD
F9
02
06
10
12
12
19
20
07
F7
F6
FE
01
02
FF
FE
FF
0B
08
01
FE
02
FF
00
01
01
FA
F2
00
07
0A
08
0C
19
21
14
FE
FA
FE
06
03
FC
00
04
07
0C
06
01
00
03
FF
00
FD
FD
F8
F7
01
FF
09
06
0C
12
11
09
09
0A
0A
0A
03
06
02
03
09
0B
04
FE
FD
03
02
01
00
04
FD
FC
08
06
0C
0A
14
0E
0D
0E
0A
05
05
0C
09
07
09
04
07
0B
02
03
01
01
FE
FE
FF
FF
05
04
06
06
05
0B
07
09
0B
0E
03
08
0E
11
0D
07
07
03
0C
04
FE
02
04
02
FC
01
03
09
0B
07
02
02
01
03
F7
FD
F3
F8
00
FC
03
0E
0C
0B
0B
03
07
FF
04
04
00
00
FF
FE
00
03
06
05
F9
FC
F5
F1
EE
FD
F7
F8
FD
FE
FC
06
0A
06
03
01
FF
04
04
FD
00
FD
01
FE
02
FC
FD
F8
EE
F3
ED
EF
F0
F1
F2
F3
F9
FB
FF
06
04
FE
03
FF
FF
01
00
FE
03
02
FE
FF
01
FB
FD
FB
F6
F2
F1
F3
EE
F0
F6
F6
F1
F7
00
00
FE
00
FE
FD
04
FB
03
00
00
FE
02
05
04
FF
00
00
FD
02
FF
02
FC
FE
F8
FA
FC
00
01
FD
FF
FD
03
02
FF
05
FF
05
FF
FD
FF
FE
03
FD
00
00
FC
02
00
FF
02
02
04
03
00
05
01
FE
03
05
FF
02
01
05
05
02
FE
02
FD
FF
02
02
FC
05
FE
00
FC
FC
03
FE
FF
FD
00
FC
FC
FC
FC
02
03
FC
FD
FE
03
04
FC
FF
02
03
FC
FD
00
01
00
03
00
01
04
FE
FB
FE
04
01
FE
FD
02
02
FB
FE
FF
00
02
FE
FF
03
FE
01
03
FE
02
FC
FF
01
FF
FF
01
FF
FD
FA
01
FE
00
FE
FD
FD
02
02
01
01
04
04
04
03
00
FD
01
FC
00
04
FD
FB
F7
FD
FF
FD
FD
01
04
01
03
03
06
03
02
FC
FE
02
04
01
FF
00
02
FF
03
02
FF
03
01
00
FF
02
FE
02
FF
07
0E
0D
06
0E
09
FF
08
00
03
02
FF
03
04
03
FD
FF
FD
04
03
02
05
FE
06
FF
01
F5
F9
F3
FA
07
02
FD
FD
01
06
0C
10
0B
05
FE
FF
00
FC
00
04
07
04
01
05
08
05
07
04
F9
FA
FF
F4
FD
FB
04
00
08
01
07
12
16
0E
08
FF
01
FD
03
02
05
08
03
00
04
FF
FD
00
FC
FC
FC
F7
FA
01
00
05
06
05
0A
0B
14
14
01
03
02
00
FE
05
00
08
FF
01
FF
FF
FA
FA
FB
FC
F9
03
01
FD
04
01
0E
06
04
0A
19
1A
08
FC
04
FD
FE
03
01
FF
FD
03
03
FA
F7
F8
F7
F6
FE
06
FF
FE
F9
FC
03
06
05
07
1A
16
03
FC
FF
FB
FC
02
FF
FC
F5
FA
FE
FE
FD
F7
FC
09
11
13
0B
FD
EE
F8
FC
FA
F5
F3
09
13
08
FF
00
00
03
01
FE
FC
FC
F6
F8
02
03
06
08
10
15
1F
0F
00
F7
EC
EC
E4
DB
E8
F2
07
00
FE
04
FB
FC
01
FF
F9
00
FF
02
08
10
11
14
11
1B
18
06
FD
FF
F0
ED
DF
D6
DE
EB
FE
FE
FB
00
FF
FD
FD
FD
FB
FA
00
0A
0E
0A
0A
0B
11
11
0E
04
04
01
FE
FB
EB
E1
E4
EC
FB
FC
03
03
03
01
04
FF
FE
F3
F3
03
09
04
FB
0B
0A
16
0F
09
FF
02
FD
02
03
F9
F5
F7
FD
02
FF
FC
02
FE
00
03
F5
E8
EB
F4
04
FA
06
0D
0C
15
12
04
FC
05
FC
09
0B
05
FB
F9
FB
FE
03
FF
03
FD
FF
04
F0
E6
E2
E3
E9
EB
F5
04
12
16
04
F7
FA
05
02
05
08
0C
06
FB
F8
FF
00
FB
02
FD
03
05
F6
F1
ED
DF
D0
C9
CC
DB
F7
FD
01
FB
00
FE
04
FF
07
06
01
FB
F5
FB
FF
FE
01
03
03
05
00
03
F9
EA
E1
D6
D0
D4
F2
F5
FD
FE
04
01
02
FE
0B
04
F7
FB
F9
00
FD
FE
03
01
0C
09
09
06
08
02
F8
EF
EC
E7
FA
FD
00
02
01
0A
06
05
09
FD
FD
FC
F9
FB
FC
01
FF
00
09
04
05
04
06
0D
05
FC
03
F2
F9
FD
04
0A
0A
0B
02
01
03
04
FE
F6
FE
02
FE
00
FC
FF
06
08
05
04
06
08
02
04
01
01
FC
05
06
06
0C
02
02
02
FD
F6
F8
FC
01
FD
04
04
FE
FF
01
09
03
02
FA
F9
FD
FD
FE
F8
FE
FE
01
07
07
0E
07
04
F9
F5
FE
FA
FE
04
FE
04
00
FC
FF
09
0B
06
06
FE
04
01
FD
F4
F7
F7
FF
03
07
06
00
FD
F5
F8
FF
00
03
02
FE
FE
FB
FD
04
04
06
0A
0D
0C
0A
0F
0A
06
04
02
00
00
08
FF
02
FF
FD
FD
02
00
FE
04
FC
FC
02
FC
FC
00
02
02
09
07
0C
14
0E
14
12
0A
03
04
FF
FD
00
FF
FF
FE
01
FE
FE
04
FD
00
FC
01
FD
01
00
02
03
02
FE
FF
03
FC
FB
FE
FD
03
FD
FC
FB
03
01
FF
FD
02
FF
FF
FD
02
00
FE
02
00
03
01
02
FF
04
02
FF
FC
FE
FD
00
03
01
02
FB
FC
FF
FC
FD
FE
01
FC
02
FE
FE
FD
FC
FB
FA
01
00
F9
00
FC
FF
FA
F8
01
FC
FF
00
FA
FA
F8
FA
FF
FE
FB
FF
FD
FD
FB
FF
01
01
FA
FE
F8
FE
FE
FF
00
00
00
F8
FA
FA
FD
00
01
01
00
F9
FF
FA
FD
FC
FC
FA
FB
FE
F9
F9
F9
00
FE
FC
FD
FC
FD
01
02
FA
00
02
04
00
00
F6
FC
FB
FF
FC
FD
FB
FB
FE
F8
F9
F9
FE
F8
FC
01
FF
FE
0A
09
0D
0E
0A
0C
0A
09
06
FE
F7
FA
FB
FD
FD
FF
01
FB
F9
FA
FC
FF
FE
FC
FE
00
02
09
13
17
1A
1B
19
17
12
0F
0B
08
FD
F5
F3
ED
EF
FB
FF
FB
FE
F9
01
FD
FE
00
FF
07
0D
0C
0F
17
12
0F
13
0C
0F
1E
18
0C
01
05
F9
EE
EC
F2
FF
FD
FA
F8
FA
FF
FA
00
07
07
0D
14
14
12
0E
11
11
0E
14
12
0D
10
08
00
FD
F9
F1
F9
01
FF
00
FF
FF
FF
FB
01
0F
0D
0D
12
0A
10
0D
0D
10
08
0D
0B
01
09
04
04
04
03
FB
FE
04
FB
FF
FF
F8
FF
00
05
0A
0E
0E
12
0F
13
0D
10
0D
0F
09
0D
06
08
08
0B
0A
17
08
01
FE
02
00
01
F8
01
FC
06
12
0E
0E
0A
0E
05
FF
F9
FC
FF
FE
05
06
0A
0D
11
14
1C
0E
03
02
FD
FB
01
FC
FE
FE
06
03
07
F6
F6
F2
EA
E7
E2
E3
F0
ED
01
02
07
06
0A
0D
0D
08
FE
FD
FA
FD
FA
F8
01
FE
FC
F0
EA
E0
DB
D8
DD
E6
E1
E4
E2
E5
F7
FB
FF
06
FF
FF
02
FB
FB
FF
FE
FD
FB
FA
F9
F8
F6
DF
CE
D3
D2
E1
EB
F4
F7
EF
F3
F4
F6
F4
FB
02
01
F1
EB
EC
F9
FD
FB
FF
FC
FF
FD
FD
ED
D8
D1
DA
E4
EF
FB
03
07
08
02
F8
FB
F9
02
FE
F8
F3
E4
EB
F4
FD
02
FE
01
FC
00
F9
F5
E2
E0
E5
F2
FC
06
09
07
12
0B
05
01
02
09
F8
F3
EA
E3
EB
F0
FE
03
FC
FD
FA
00
FA
FA
F5
F8
F9
F9
01
FE
FE
09
12
0A
08
04
FF
01
F6
F0
EC
E8
EB
FD
0A
01
FB
FF
00
FD
03
0D
06
00
F5
FC
03
FE
05
11
13
08
04
05
0A
04
FA
F8
FC
02
04
07
0D
02
00
FC
00
FD
06
17
0C
0A
03
F8
FF
F8
00
03
01
FD
07
0D
08
FE
FF
FE
FE
00
0B
15
0C
FD
02
F8
FB
FC
0C
13
1C
19
0F
02
FD
FD
01
FD
FC
FE
07
07
0C
06
07
07
07
11
13
17
0A
FD
F9
FB
FF
FB
02
13
1A
1A
15
0F
0B
07
FB
04
02
01
08
06
09
09
03
09
0C
15
15
0E
08
03
FB
FA
01
FF
09
0E
1B
19
1C
18
0F
07
00
FC
FD
F7
00
02
01
06
07
10
14
16
16
08
01
FD
FB
FD
F9
03
05
06
0B
0E
0E
08
07
00
00
F6
FF
FC
FB
FB
02
06
0E
0D
10
12
12
08
FC
01
FB
FB
FA
FD
FD
02
01
07
0C
06
0C
05
0D
09
03
01
FC
00
07
08
10
0F
10
0E
07
02
FB
01
01
FB
F8
FD
FE
04
FB
FD
01
06
05
07
0D
0B
09
0C
07
0A
08
08
0C
04
09
04
07
03
FD
FD
00
00
FD
FE
FD
00
FA
F6
FC
FF
09
05
0F
11
12
16
12
11
07
04
00
FD
00
FB
FB
02
FB
FD
FD
FB
FB
FD
F8
FC
FE
FC
FF
02
04
05
06
05
08
09
09
02
04
03
FE
F9
F9
FD
F8
F9
F9
FC
FD
FD
FC
F9
FF
00
FC
F9
FF
FA
FA
02
FB
FF
FB
FC
F9
FA
FE
FB
FC
F9
FB
FA
FB
FC
00
FC
00
FB
F9
FB
FE
FA
F9
FF
FF
FF
FB
FE
FF
F8
FA
00
F9
FB
FA
01
FD
FE
01
F9
F8
01
FE
FB
FC
